TRT-8400-EntropyCalibration
images: 3c010a14
onnx::Slice_130: 3c010a14
onnx::Concat_135: 3c010a14
onnx::Slice_140: 3c010a14
onnx::Concat_145: 3c010a14
onnx::Slice_150: 3c010a14
onnx::Concat_155: 3c010a14
onnx::Slice_160: 3c010a14
onnx::Concat_165: 3c010a14
input.3: 3cedf655
input.7: 3e0209b8
input.11: 3e876f18
input.15: 3f219a04
onnx::Sigmoid_179: 3fc50e4f
onnx::Concat_182: 3fec797e
onnx::Concat_185: 3e6ae109
input.23: 3faaf71e
input.27: 4050f2a1
input.31: 40954f49
input.35: 4150692d
onnx::Sigmoid_199: 41d392f3
input.39: 417d236d
input.43: 4194e709
onnx::Sigmoid_206: 42135d03
input.47: 41b49518
input.51: 4198efe4
onnx::Sigmoid_213: 420261f5
onnx::Concat_216: 4214a38e
onnx::Concat_219: 40dabc4a
input.59: 41f8f6f0
input.63: 424c5131
input.67: 42a85283
input.71: 431cf01b
onnx::Sigmoid_233: 4393e3ed
input.75: 4359b34c
input.79: 434c0ea3
onnx::Sigmoid_240: 43b5e186
input.83: 43a25be0
input.87: 43a2d298
onnx::Sigmoid_247: 4431b25e
onnx::Concat_250: 440153fb
onnx::Concat_253: 42a592fd
input.95: 43cac68f
input.99: 4423dbbc
onnx::MaxPool_263: 4485a9dc
onnx::Concat_264: 44874c4f
onnx::Concat_265: 44874c4f
onnx::Concat_266: 44954972
input.107: 44b1edc3
input.111: 451d93e3
input.115: 45828904
onnx::Concat_279: 45e69000
onnx::Concat_282: 453b00b9
input.123: 46141eba
input.127: 466a1de2
onnx::Concat_294: 466a1de2
input.135: 4679e89b
input.139: 46db1593
onnx::Concat_304: 4715bc90
onnx::Concat_307: 4649186d
input.147: 4795e2b7
input.151: 47a5c4be
onnx::Concat_319: 47a5c4be
input.159: 47c9ce6d
input.163: 4837ea5f
onnx::Concat_329: 4883e736
onnx::Concat_332: 479dcb36
input.171: 48d4dd84
onnx::Concat_339: 4922551b
input.179: 49675856
input.183: 49add599
onnx::Concat_349: 4a3cc80a
onnx::Concat_352: 496ad5e8
input.191: 4a6b4ad3
onnx::Concat_359: 4a947651
input.199: 4acd4545
input.203: 4b0dedfa
onnx::Concat_369: 4b896521
onnx::Concat_372: 4ad64c08
input.211: 4baf32e6
onnx::Reshape_377: 4961e21e
onnx::Sigmoid_390: 4961e21e
onnx::Slice_391: 3c010a14
onnx::Mul_396: 3c010a14
(Unnamed Layer* 222) [Constant]_output: 3f1f4871
onnx::Concat_404: 40a24ead
onnx::Mul_409: 3c00f9f4
(Unnamed Layer* 234) [Constant]_output: 3e851265
onnx::Concat_415: 3f0113a7
onnx::Concat_420: 3c010a14
onnx::Concat_428: 40a24ead
onnx::Reshape_429: 4abc34fc
onnx::Sigmoid_442: 4abc34fc
onnx::Slice_443: 3c010a14
onnx::Mul_448: 3c010a14
(Unnamed Layer* 250) [Constant]_output: 3e9d4449
onnx::Concat_456: 40a350c2
onnx::Mul_461: 3c010a14
(Unnamed Layer* 262) [Constant]_output: 3f6feebd
onnx::Concat_467: 407a0387
onnx::Concat_472: 3c010a14
onnx::Concat_480: 40a350c2
onnx::Reshape_481: 4c15a8ca
onnx::Sigmoid_494: 4c15a8ca
onnx::Slice_495: 3c010a14
onnx::Mul_500: 3c010a14
(Unnamed Layer* 278) [Constant]_output: 3e193bf8
onnx::Concat_508: 40a554ea
onnx::Mul_513: 3c010a14
(Unnamed Layer* 290) [Constant]_output: 403c03af
onnx::Concat_519: 413c03af
onnx::Concat_524: 3c010a14
onnx::Concat_532: 413c03af
