TRT-8400-EntropyCalibration2
images: 3bfd0a14
onnx::Slice_130: 3bfd0a14
onnx::Concat_135: 3bfd0a14
onnx::Slice_140: 3bf5fbf8
onnx::Concat_145: 3bf5fbf8
onnx::Slice_150: 3bfd0a14
onnx::Concat_155: 3c010a14
onnx::Slice_160: 3bf5fbf8
onnx::Concat_165: 3bfd0a14
input: 3bfd0a14
onnx::Sigmoid_167: 3db5db78
onnx::Mul_168: 3c0111c5
input.3: 3d8c64d5
onnx::Sigmoid_170: 3d973d80
onnx::Mul_171: 3c010a0b
input.7: 3d91b67d
onnx::Sigmoid_173: 3d7dae66
onnx::Mul_174: 3c00e804
input.11: 3d0f440f
onnx::Sigmoid_176: 3d572b5e
onnx::Mul_177: 3c00bf9d
input.15: 3ce51ee1
onnx::Sigmoid_179: 3d69b63b
onnx::Mul_180: 3c00ea2f
onnx::Add_181: 3d0133c9
onnx::Concat_182: 3d63e971
onnx::Sigmoid_183: 3db1ef52
onnx::Mul_184: 3c0111c3
onnx::Concat_185: 3d469e55
input.19: 3d68a59a
onnx::Sigmoid_187: 3d9623ce
onnx::Mul_188: 3c011106
input.23: 3d41da66
onnx::Sigmoid_190: 3d77975a
onnx::Mul_191: 3c00e8e2
input.27: 3d40b82f
onnx::Sigmoid_193: 3d6f2017
onnx::Mul_194: 3c00e5f6
input.31: 3d0f99d7
onnx::Sigmoid_196: 3d74b20b
onnx::Mul_197: 3c01e904
input.35: 3d105ab2
onnx::Sigmoid_199: 3d36c841
onnx::Mul_200: 3c00ed00
onnx::Add_201: 3cd0dd3d
input.39: 3d8ffbf9
onnx::Sigmoid_203: 3d7a87e5
onnx::Mul_204: 3c00c01f
input.43: 3cff8f00
onnx::Sigmoid_206: 3d44b1ce
onnx::Mul_207: 3c010874
onnx::Add_208: 3d01c47c
input.47: 3dac82b8
onnx::Sigmoid_210: 3d60d654
onnx::Mul_211: 3c053342
input.51: 3d00516a
onnx::Sigmoid_213: 3d3a3b9d
onnx::Mul_214: 3c00b427
onnx::Add_215: 3ce6a219
onnx::Concat_216: 3dc79243
onnx::Sigmoid_217: 3d736cf5
onnx::Mul_218: 3c00e8f3
onnx::Concat_219: 3d41293c
input.55: 3d9302a1
onnx::Sigmoid_221: 3d624f81
onnx::Mul_222: 3c02ea63
input.59: 3cff73af
onnx::Sigmoid_224: 3d349fe4
onnx::Mul_225: 3c005a7e
input.63: 3cffe4be
onnx::Sigmoid_227: 3d43c822
onnx::Mul_228: 3c10dc54
input.67: 3cd1ddb0
onnx::Sigmoid_230: 3d3a3aa5
onnx::Mul_231: 3c033e2f
input.71: 3ce9eb34
onnx::Sigmoid_233: 3d25161a
onnx::Mul_234: 3bfece61
onnx::Add_235: 3cffa1ac
input.75: 3d4e3a29
onnx::Sigmoid_237: 3d2ab560
onnx::Mul_238: 3c0333cd
input.79: 3d010029
onnx::Sigmoid_240: 3d387d28
onnx::Mul_241: 3c0861e5
onnx::Add_242: 3d00edb2
input.83: 3d82300a
onnx::Sigmoid_244: 3d2484fe
onnx::Mul_245: 3c01aa3d
input.87: 3ce8df35
onnx::Sigmoid_247: 3d34c2d1
onnx::Mul_248: 3c00454b
onnx::Add_249: 3ce7b268
onnx::Concat_250: 3d9eb067
onnx::Sigmoid_251: 3d3c9e66
onnx::Mul_252: 3c00aafb
onnx::Concat_253: 3d01cf02
input.91: 3d65f563
onnx::Sigmoid_255: 3d368ebc
onnx::Mul_256: 3bffe1c3
input.95: 3cd19936
onnx::Sigmoid_258: 3d3034f6
onnx::Mul_259: 3c003057
input.99: 3d100645
onnx::Sigmoid_261: 3d3da317
onnx::Mul_262: 3c0088fd
onnx::MaxPool_263: 3d2531cb
onnx::Concat_264: 3d2531cb
onnx::Concat_265: 3d2531cb
onnx::Concat_266: 3d2531cb
input.103: 3d407c96
onnx::Sigmoid_268: 3d1eb05d
onnx::Mul_269: 3c01f176
input.107: 3cd1b0bf
onnx::Sigmoid_271: 3d398a93
onnx::Mul_272: 3c0074a7
input.111: 3d1155e3
onnx::Sigmoid_274: 3d6cbd8e
onnx::Mul_275: 3c00db61
input.115: 3d415102
onnx::Sigmoid_277: 3d8b2bff
onnx::Mul_278: 3c063127
onnx::Concat_279: 3d916f83
onnx::Sigmoid_280: 3d2e8865
onnx::Mul_281: 3c0021f7
onnx::Concat_282: 3d0f976d
input.119: 3d68921d
onnx::Sigmoid_284: 3d909a73
onnx::Mul_285: 3c020f2b
input.123: 3d9094e8
onnx::Sigmoid_287: 3d9e6b93
onnx::Mul_288: 3c031235
input.127: 3d91df2a
onnx::Concat_294: 3d91df2a
input.131: 3d91df2a
onnx::Sigmoid_296: 3d9e8788
onnx::Mul_297: 3c020e3c
input.135: 3d93e71c
onnx::Sigmoid_299: 3da11b6b
onnx::Mul_300: 3c0188d7
input.139: 3d688c25
onnx::Sigmoid_302: 3da1118d
onnx::Mul_303: 3c041682
onnx::Concat_304: 3d90d666
onnx::Sigmoid_305: 3d95d5ed
onnx::Mul_306: 3c020a62
onnx::Concat_307: 3d9027f3
input.143: 3d9036aa
onnx::Sigmoid_309: 3da54cbc
onnx::Mul_310: 3c0314ab
input.147: 3d920f39
onnx::Sigmoid_312: 3db4ca87
onnx::Mul_313: 3c0111ee
input.151: 3dbad02a
onnx::Concat_319: 3dbad02a
input.155: 3d67540d
onnx::Sigmoid_321: 3d93aeaf
onnx::Mul_322: 3c020be0
input.159: 3d91f241
onnx::Sigmoid_324: 3d96d183
onnx::Mul_325: 3c010dff
input.163: 3d66e757
onnx::Sigmoid_327: 3dab4043
onnx::Mul_328: 3c021352
onnx::Concat_329: 3d6436c8
onnx::Sigmoid_330: 3d9d9caa
onnx::Mul_331: 3c02126d
onnx::Concat_332: 3d902983
input.167: 3d901cfc
onnx::Sigmoid_334: 3da0d786
onnx::Mul_335: 3c011163
input.171: 3d25f785
onnx::Sigmoid_337: 3d93bb07
onnx::Mul_338: 3c01115b
onnx::Concat_339: 3d24bcaf
input.175: 3d67540d
onnx::Sigmoid_341: 3d9f3477
onnx::Mul_342: 3c0211ae
input.179: 3d8dd129
onnx::Sigmoid_344: 3da86150
onnx::Mul_345: 3c031588
input.183: 3d93aeba
onnx::Sigmoid_347: 3dd2690c
onnx::Mul_348: 3c05fbd8
onnx::Concat_349: 3dbdb6ab
onnx::Sigmoid_350: 3da7024d
onnx::Mul_351: 3c0110f7
onnx::Concat_352: 3d674afa
input.187: 3d909396
onnx::Sigmoid_354: 3dbc5c23
onnx::Mul_355: 3c0111da
input.191: 3d9260f0
onnx::Sigmoid_357: 3db9e100
onnx::Mul_358: 3c0315c1
onnx::Concat_359: 3d90a143
input.195: 3d8f07a3
onnx::Sigmoid_361: 3da1fa77
onnx::Mul_362: 3c02133b
input.199: 3dbfb581
onnx::Sigmoid_364: 3dada979
onnx::Mul_365: 3c0412da
input.203: 3dbc56b6
onnx::Sigmoid_367: 3da3f28b
onnx::Mul_368: 3c071745
onnx::Concat_369: 3d91063f
onnx::Sigmoid_370: 3daefaad
onnx::Mul_371: 3c021291
onnx::Concat_372: 3d9131fc
input.207: 3d8e5fd9
onnx::Sigmoid_374: 3daa50f7
onnx::Mul_375: 3c07578b
input.211: 3d6829c9
onnx::Reshape_377: 3ddc3322
onnx::Transpose_389: 3ddc3322
onnx::Sigmoid_390: 3ddc3322
onnx::Slice_391: 3c00d5df
onnx::Mul_396: 3bf1dc4f
(Unnamed Layer* 217) [Shuffle]_output: 3c810a14
onnx::Sub_398: 3c71dc4f
(Unnamed Layer* 220) [Shuffle]_output: 3b810a14
onnx::Add_400: 3c2afa41
(Unnamed Layer* 222) [Constant]_output: 3f1f4871
onnx::Mul_402: 3f2bd22a
(Unnamed Layer* 225) [Shuffle]_output: 3d810a14
onnx::Concat_404: 40abd22a
onnx::Mul_409: 3c002569
(Unnamed Layer* 229) [Shuffle]_output: 3c810a14
onnx::Pow_411: 3c802569
(Unnamed Layer* 232) [Shuffle]_output: 3c810a14
onnx::Mul_413: 3cff7385
(Unnamed Layer* 234) [Constant]_output: 3e851265
onnx::Concat_415: 3f7b00b1
onnx::Concat_420: 3c00f618
onnx::Reshape_421: 40a089e2
onnx::Concat_428: 40a089e2
onnx::Reshape_429: 3dd811fb
onnx::Transpose_441: 3dd811fb
onnx::Sigmoid_442: 3dd811fb
onnx::Slice_443: 3c0111f6
onnx::Mul_448: 3bf7e4a2
(Unnamed Layer* 245) [Shuffle]_output: 3c810a14
onnx::Sub_450: 3c77e4a2
(Unnamed Layer* 248) [Shuffle]_output: 3b810a14
onnx::Add_452: 3c4850d8
(Unnamed Layer* 250) [Constant]_output: 3e9d4449
onnx::Mul_454: 3eac0675
(Unnamed Layer* 253) [Shuffle]_output: 3e010a14
onnx::Concat_456: 40ac0675
onnx::Mul_461: 3c06ab56
(Unnamed Layer* 257) [Shuffle]_output: 3c810a14
onnx::Pow_463: 3c86ab56
(Unnamed Layer* 260) [Shuffle]_output: 3c810a14
onnx::Mul_465: 3cfe80d2
(Unnamed Layer* 262) [Constant]_output: 3f6feebd
onnx::Concat_467: 4014da59
onnx::Concat_472: 3c0111f6
onnx::Reshape_473: 409ffff7
onnx::Concat_480: 409ffff7
onnx::Reshape_481: 3dbd65d4
onnx::Transpose_493: 3dbd65d4
onnx::Sigmoid_494: 3dbd65d4
onnx::Slice_495: 3c00eca7
onnx::Mul_500: 3bfddbae
(Unnamed Layer* 273) [Shuffle]_output: 3c810a14
onnx::Sub_502: 3c7ddbae
(Unnamed Layer* 276) [Shuffle]_output: 3b810a14
onnx::Add_504: 3c38c40b
(Unnamed Layer* 278) [Constant]_output: 3e193bf8
onnx::Mul_506: 3e2bee09
(Unnamed Layer* 281) [Shuffle]_output: 3e810a14
onnx::Concat_508: 40abee09
onnx::Mul_513: 3beeaf98
(Unnamed Layer* 285) [Shuffle]_output: 3c810a14
onnx::Pow_515: 3c6eaf98
(Unnamed Layer* 288) [Shuffle]_output: 3c810a14
onnx::Mul_517: 3cdcc3a7
(Unnamed Layer* 290) [Constant]_output: 403c03af
onnx::Concat_519: 406055ae
onnx::Concat_524: 3c00eca7
onnx::Reshape_525: 40abee09
onnx::Concat_532: 40abee09
output: 40a089e2
