TRT-8400-EntropyCalibration
images: 3ffc0d0a
onnx::Slice_130: 3ffc0d0a
onnx::Concat_135: 3ffc0d0a
onnx::Slice_140: 3ff505fc
onnx::Concat_145: 3ff505fc
onnx::Slice_150: 3ffc0d0a
onnx::Concat_155: 4000890a
onnx::Slice_160: 3ff505fc
onnx::Concat_165: 3ffc0d0a
input.3: 41d7c7d1
input.7: 42371823
input.11: 42ae72b2
input.15: 433952d9
onnx::Sigmoid_179: 43ac3d0b
onnx::Concat_182: 43a593b4
onnx::Concat_185: 429c99bd
input.23: 439380eb
input.27: 43e772a1
input.31: 444d82cc
input.35: 44d1309b
onnx::Sigmoid_199: 452e7a43
input.39: 452fa400
input.43: 453dbf6c
onnx::Sigmoid_206: 45a81fa9
input.47: 45a6c7f3
input.51: 4598eed1
onnx::Sigmoid_213: 45f0a3b5
onnx::Concat_216: 46046d9f
onnx::Concat_219: 4423b4df
input.59: 45c6a7be
input.63: 4647176d
input.67: 466e13fc
input.71: 47070ad5
onnx::Sigmoid_233: 474d6bff
input.75: 471efb60
input.79: 4740e572
onnx::Sigmoid_240: 47833706
input.83: 4776c02e
input.87: 4782c028
onnx::Sigmoid_247: 47d3cb8d
onnx::Concat_250: 47cb2800
onnx::Concat_253: 46876cb8
input.95: 4787f5a9
input.99: 48053a4a
onnx::MaxPool_263: 48446727
onnx::Concat_264: 484935c5
onnx::Concat_265: 486f3fef
onnx::Concat_266: 486f3fef
input.107: 4875f382
input.111: 48cc0c06
input.115: 492dbe17
onnx::Concat_279: 499d0420
onnx::Concat_282: 48c1ce2a
input.123: 49c47b2c
input.127: 4a13c19d
onnx::Concat_294: 4a13c19d
input.135: 4a1ae7da
input.139: 4a857358
onnx::Concat_304: 4ad90f1f
onnx::Concat_307: 49eeef54
input.147: 4b1bb0ac
input.151: 4b6b9da3
onnx::Concat_319: 4b6b9da3
input.159: 4b7a1985
input.163: 4c3bc5e1
onnx::Concat_329: 4c89edef
onnx::Concat_332: 4b59b7df
input.171: 4cdd06be
onnx::Concat_339: 4d0efeda
input.179: 4d4cea3e
input.183: 4db55697
onnx::Concat_349: 4e1daf10
onnx::Concat_352: 4d5478e3
input.191: 4e504743
onnx::Concat_359: 4e8d08dd
input.199: 4ea5598c
input.203: 4ef75005
onnx::Concat_369: 4f4a9857
onnx::Concat_372: 4ea76c7e
input.211: 4f9642c3
onnx::Reshape_377: 4d7885d7
onnx::Sigmoid_390: 4d7885d7
onnx::Slice_391: 3c010a14
onnx::Mul_396: 3c010a14
(Unnamed Layer* 222) [Constant]_output: 3f1f4871
onnx::Concat_404: 40a24ead
onnx::Mul_409: 3c010a14
(Unnamed Layer* 234) [Constant]_output: 3e851265
onnx::Concat_415: 3f851265
onnx::Concat_420: 3c010a14
onnx::Concat_428: 406ffe9d
onnx::Reshape_429: 4e80591c
onnx::Sigmoid_442: 4e80591c
onnx::Slice_443: 3c010a14
onnx::Mul_448: 3c010a14
(Unnamed Layer* 250) [Constant]_output: 3e9d4449
onnx::Concat_456: 40a350c2
onnx::Mul_461: 3c010a14
(Unnamed Layer* 262) [Constant]_output: 3f6feebd
onnx::Concat_467: 407a0387
onnx::Concat_472: 3c010a14
onnx::Concat_480: 40a350c2
onnx::Reshape_481: 501c4bfb
onnx::Sigmoid_494: 501c4bfb
onnx::Slice_495: 3c010a14
onnx::Mul_500: 3c010a14
(Unnamed Layer* 278) [Constant]_output: 3e193bf8
onnx::Concat_508: 40a554ea
onnx::Mul_513: 3c010a14
(Unnamed Layer* 290) [Constant]_output: 403c03af
onnx::Concat_519: 413c03af
onnx::Concat_524: 3c010a14
onnx::Concat_532: 413c03af
