TRT-8400-EntropyCalibration2
images: 3bfd0a14
onnx::Slice_130: 3bfd0a14
onnx::Concat_135: 3bfd0a14
onnx::Slice_140: 3bf5fbf8
onnx::Concat_145: 3bf5fbf8
onnx::Slice_150: 3bfd0a14
onnx::Concat_155: 3c010a14
onnx::Slice_160: 3bf5fbf8
onnx::Concat_165: 3bf90204
input: 3bfd0a14
onnx::Sigmoid_167: 3db5db78
onnx::Mul_168: 3c0111c5
input.3: 3d8c64d5
onnx::Sigmoid_170: 3d991527
onnx::Mul_171: 3c010a0b
input.7: 3d91b67d
onnx::Sigmoid_173: 3d750e27
onnx::Mul_174: 3c01e9b3
input.11: 3d0faf61
onnx::Sigmoid_176: 3d57a47f
onnx::Mul_177: 3c00dfd9
input.15: 3ce51ee1
onnx::Sigmoid_179: 3d6a37aa
onnx::Mul_180: 3c00ea2f
onnx::Add_181: 3d0133c9
onnx::Concat_182: 3d63e971
onnx::Sigmoid_183: 3db1ef52
onnx::Mul_184: 3c0111c3
onnx::Concat_185: 3d469e55
input.19: 3d68a59a
onnx::Sigmoid_187: 3d95fa46
onnx::Mul_188: 3c011106
input.23: 3d418758
onnx::Sigmoid_190: 3d750163
onnx::Mul_191: 3c00e8e2
input.27: 3d40b82f
onnx::Sigmoid_193: 3d6f2017
onnx::Mul_194: 3c00e5f6
input.31: 3d3fa25b
onnx::Sigmoid_196: 3d74b20b
onnx::Mul_197: 3c01e904
input.35: 3d109b5d
onnx::Sigmoid_199: 3d3b2ab4
onnx::Mul_200: 3c053123
onnx::Add_201: 3cd0dd3d
input.39: 3d8ffbf9
onnx::Sigmoid_203: 3d7a87e5
onnx::Mul_204: 3c00c01f
input.43: 3cff8f00
onnx::Sigmoid_206: 3d44b1ce
onnx::Mul_207: 3c010874
onnx::Add_208: 3d01c47c
input.47: 3dac82b8
onnx::Sigmoid_210: 3d60a326
onnx::Mul_211: 3c00e2dc
input.51: 3ce7b7f9
onnx::Sigmoid_213: 3d3a3b9d
onnx::Mul_214: 3c00c445
onnx::Add_215: 3ce6a219
onnx::Concat_216: 3dc71cbe
onnx::Sigmoid_217: 3d736cf5
onnx::Mul_218: 3c00e8f3
onnx::Concat_219: 3d41293c
input.55: 3d9302a1
onnx::Sigmoid_221: 3d624f81
onnx::Mul_222: 3c042c7c
input.59: 3cd11501
onnx::Sigmoid_224: 3d349fe4
onnx::Mul_225: 3c019bd9
input.63: 3cffe4be
onnx::Sigmoid_227: 3d39d343
onnx::Mul_228: 3c097383
input.67: 3cd1ddb0
onnx::Sigmoid_230: 3d4392c1
onnx::Mul_231: 3c033e2f
input.71: 3ce9eb34
onnx::Sigmoid_233: 3d220cf9
onnx::Mul_234: 3bfece61
onnx::Add_235: 3ce6018f
input.75: 3d4f0f5d
onnx::Sigmoid_237: 3d20ea14
onnx::Mul_238: 3c0333cd
input.79: 3cd3d661
onnx::Sigmoid_240: 3d2b2f1d
onnx::Mul_241: 3c0861e5
onnx::Add_242: 3d00edb2
input.83: 3d82300a
onnx::Sigmoid_244: 3d1ca69c
onnx::Mul_245: 3c01ca4c
input.87: 3ce8df35
onnx::Sigmoid_247: 3d258d8d
onnx::Mul_248: 3c00454b
onnx::Add_249: 3ce7b268
onnx::Concat_250: 3d96f9bf
onnx::Sigmoid_251: 3d3607c6
onnx::Mul_252: 3c00cb32
onnx::Concat_253: 3d01cf02
input.91: 3d65f563
onnx::Sigmoid_255: 3d2f2f55
onnx::Mul_256: 3c007143
input.95: 3cd19936
onnx::Sigmoid_258: 3d3034f6
onnx::Mul_259: 3c003057
input.99: 3d100645
onnx::Sigmoid_261: 3d40e962
onnx::Mul_262: 3c0088fd
onnx::MaxPool_263: 3d2531cb
onnx::Concat_264: 3d2531cb
onnx::Concat_265: 3d2531cb
onnx::Concat_266: 3d2531cb
input.103: 3d407c96
onnx::Sigmoid_268: 3d1eb05d
onnx::Mul_269: 3c027159
input.107: 3cd1b0bf
onnx::Sigmoid_271: 3d36e8d7
onnx::Mul_272: 3c0074a7
input.111: 3d1155e3
onnx::Sigmoid_274: 3d6c1c03
onnx::Mul_275: 3c00bb2e
input.115: 3d415102
onnx::Sigmoid_277: 3d8b8cf1
onnx::Mul_278: 3c020930
onnx::Concat_279: 3d8ea8ce
onnx::Sigmoid_280: 3d2e8865
onnx::Mul_281: 3c0041f3
onnx::Concat_282: 3cff74e9
input.119: 3d68921d
onnx::Sigmoid_284: 3d90bded
onnx::Mul_285: 3c04131f
input.123: 3d9094e8
onnx::Sigmoid_287: 3d9efd64
onnx::Mul_288: 3c063869
input.127: 3d9171d1
onnx::Concat_294: 3d9171d1
input.131: 3d9171d1
onnx::Sigmoid_296: 3d9e8788
onnx::Mul_297: 3c031034
input.135: 3d93c454
onnx::Sigmoid_299: 3d96a498
onnx::Mul_300: 3c0188d7
input.139: 3d688c25
onnx::Sigmoid_302: 3da1118d
onnx::Mul_303: 3c09a186
onnx::Concat_304: 3d661624
onnx::Sigmoid_305: 3d95d5ed
onnx::Mul_306: 3c020a62
onnx::Concat_307: 3d900728
input.143: 3d8e2f87
onnx::Sigmoid_309: 3da45a94
onnx::Mul_310: 3c0314ab
input.147: 3d920f39
onnx::Sigmoid_312: 3db4ca87
onnx::Mul_313: 3c0111ee
input.151: 3db91e7f
onnx::Concat_319: 3db91e7f
input.155: 3d67540d
onnx::Sigmoid_321: 3d93aeaf
onnx::Mul_322: 3c020be0
input.159: 3d91f241
onnx::Sigmoid_324: 3da3ac6e
onnx::Mul_325: 3c063829
input.163: 3d660de3
onnx::Sigmoid_327: 3dab4043
onnx::Mul_328: 3c031554
onnx::Concat_329: 3d2488bc
onnx::Sigmoid_330: 3d9ca47e
onnx::Mul_331: 3c063aaf
onnx::Concat_332: 3d902983
input.167: 3d901cfc
onnx::Sigmoid_334: 3da0d786
onnx::Mul_335: 3c011163
input.171: 3d25f785
onnx::Sigmoid_337: 3d8bda96
onnx::Mul_338: 3c01115b
onnx::Concat_339: 3d24bcaf
input.175: 3d67540d
onnx::Sigmoid_341: 3d9f3477
onnx::Mul_342: 3c0211ae
input.179: 3d8dd129
onnx::Sigmoid_344: 3da8e4a9
onnx::Mul_345: 3c031588
input.183: 3d93aeba
onnx::Sigmoid_347: 3dbd1f78
onnx::Mul_348: 3c05fbd8
onnx::Concat_349: 3d909396
onnx::Sigmoid_350: 3da7024d
onnx::Mul_351: 3c0110f7
onnx::Concat_352: 3d66a5b3
input.187: 3d909396
onnx::Sigmoid_354: 3dbc5c23
onnx::Mul_355: 3c0111da
input.191: 3d9260f0
onnx::Sigmoid_357: 3da56ee0
onnx::Mul_358: 3c0213bd
onnx::Concat_359: 3d91b258
input.195: 3d8eda20
onnx::Sigmoid_361: 3da1fa77
onnx::Mul_362: 3c02133b
input.199: 3d9021ff
onnx::Sigmoid_364: 3d9f57a6
onnx::Mul_365: 3c0412da
input.203: 3d8da666
onnx::Sigmoid_367: 3d9cd873
onnx::Mul_368: 3c053396
onnx::Concat_369: 3d905ac4
onnx::Sigmoid_370: 3da6fc87
onnx::Mul_371: 3c075d16
onnx::Concat_372: 3d8ca68b
input.207: 3d8e37ba
onnx::Sigmoid_374: 3da2ef24
onnx::Mul_375: 3c053360
input.211: 3d6829c9
onnx::Reshape_377: 3dd9ce19
onnx::Transpose_389: 3dd9ce19
onnx::Sigmoid_390: 3dd9ce19
onnx::Slice_391: 3c00d5df
onnx::Mul_396: 3bed8632
(Unnamed Layer* 217) [Shuffle]_output: 3c810a14
onnx::Sub_398: 3c6d8632
(Unnamed Layer* 220) [Shuffle]_output: 3b810a14
onnx::Add_400: 3c2afa41
(Unnamed Layer* 222) [Constant]_output: 3f1f4871
onnx::Mul_402: 3f2bd22a
(Unnamed Layer* 225) [Shuffle]_output: 3d810a14
onnx::Concat_404: 40abd22a
onnx::Mul_409: 3c002569
(Unnamed Layer* 229) [Shuffle]_output: 3c810a14
onnx::Pow_411: 3c802569
(Unnamed Layer* 232) [Shuffle]_output: 3c810a14
onnx::Mul_413: 3d019790
(Unnamed Layer* 234) [Constant]_output: 3e851265
onnx::Concat_415: 3f7b00b1
onnx::Concat_420: 3c00d5df
onnx::Reshape_421: 40a089e2
onnx::Concat_428: 40a089e2
onnx::Reshape_429: 3ddc4490
onnx::Transpose_441: 3ddc4490
onnx::Sigmoid_442: 3ddc4490
onnx::Slice_443: 3c423423
onnx::Mul_448: 3bf3dac7
(Unnamed Layer* 245) [Shuffle]_output: 3c810a14
onnx::Sub_450: 3c73dac7
(Unnamed Layer* 248) [Shuffle]_output: 3b810a14
onnx::Add_452: 3c482427
(Unnamed Layer* 250) [Constant]_output: 3e9d4449
onnx::Mul_454: 3eac0675
(Unnamed Layer* 253) [Shuffle]_output: 3e010a14
onnx::Concat_456: 40ac0675
onnx::Mul_461: 3c00307a
(Unnamed Layer* 257) [Shuffle]_output: 3c810a14
onnx::Pow_463: 3c80307a
(Unnamed Layer* 260) [Shuffle]_output: 3c810a14
onnx::Mul_465: 3cfeb09c
(Unnamed Layer* 262) [Constant]_output: 3f6feebd
onnx::Concat_467: 40149a01
onnx::Concat_472: 3c423423
onnx::Reshape_473: 409ffff7
onnx::Concat_480: 409ffff7
onnx::Reshape_481: 3dbd65d4
onnx::Transpose_493: 3dbd65d4
onnx::Sigmoid_494: 3dbd65d4
onnx::Slice_495: 3c00eca7
onnx::Mul_500: 3bfab5ec
(Unnamed Layer* 273) [Shuffle]_output: 3c810a14
onnx::Sub_502: 3c7ab5ec
(Unnamed Layer* 276) [Shuffle]_output: 3b810a14
onnx::Add_504: 3c3fc069
(Unnamed Layer* 278) [Constant]_output: 3e193bf8
onnx::Mul_506: 3e1ef58a
(Unnamed Layer* 281) [Shuffle]_output: 3e810a14
onnx::Concat_508: 409ef58a
onnx::Mul_513: 3bee78f7
(Unnamed Layer* 285) [Shuffle]_output: 3c810a14
onnx::Pow_515: 3c6e78f7
(Unnamed Layer* 288) [Shuffle]_output: 3c810a14
onnx::Mul_517: 3cdcc3a7
(Unnamed Layer* 290) [Constant]_output: 403c03af
onnx::Concat_519: 4060797a
onnx::Concat_524: 3c00eca7
onnx::Reshape_525: 409f097b
onnx::Concat_532: 409f097b
output: 40a061c4
